#include "network_data.h"

ai_handle ai_network_data_weights_get(void)
{

  AI_ALIGNED(4)
  static const ai_u8 s_network_weights[ 212 ] = {
    0x49, 0x2e, 0x2b, 0x3d, 0xc0, 0x55, 0x3b, 0x3e, 0x05, 0x9f,
    0x48, 0xbe, 0x1d, 0x04, 0xb9, 0x3e, 0x6b, 0xee, 0x90, 0x3e,
    0x23, 0x8d, 0xa0, 0xbe, 0xb4, 0x44, 0x83, 0xbe, 0x44, 0x21,
    0x87, 0x3e, 0xca, 0x66, 0x92, 0x3c, 0x56, 0xb8, 0x86, 0xbe,
    0x07, 0x68, 0xbb, 0x3e, 0x64, 0x2d, 0x8a, 0xbd, 0xbc, 0x3a,
    0xfa, 0x3e, 0x0c, 0x68, 0xf5, 0x3e, 0x7c, 0xf6, 0xcb, 0xbd,
    0x5b, 0x96, 0xce, 0xbc, 0x22, 0x79, 0x05, 0x3e, 0x5c, 0x4d,
    0x08, 0x3f, 0x8c, 0x3f, 0x84, 0x3d, 0x0b, 0x65, 0x31, 0x3e,
    0x66, 0x4d, 0xb5, 0x3e, 0x64, 0x50, 0x65, 0x3e, 0xe5, 0x4a,
    0x22, 0xbe, 0x6f, 0xfb, 0x0d, 0xbf, 0x2e, 0x2c, 0xe2, 0xbd,
    0x2c, 0x1f, 0xe4, 0x3d, 0x47, 0x96, 0x95, 0xbd, 0xf6, 0x10,
    0xa5, 0x3d, 0x45, 0x7a, 0x95, 0x3d, 0xc9, 0x91, 0x9b, 0xbd,
    0x0e, 0x1e, 0xa9, 0xbd, 0x02, 0x25, 0xa6, 0x3d, 0xe9, 0x43,
    0x9b, 0xbd, 0x06, 0x4a, 0x9b, 0x3d, 0x63, 0xc9, 0x70, 0xbd,
    0x53, 0x5a, 0xa6, 0x3d, 0x1d, 0x2a, 0xe6, 0x3d, 0x7b,
    0x08, 0x9b, 0x3d, 0xeb, 0xd1, 0x94, 0x3d, 0x52, 0x8b,
    0x48, 0xbe, 0x42, 0x9c, 0x31, 0x3f, 0xde, 0x64, 0x24,
    0x3e, 0xc0, 0xd8, 0xd3, 0xbe, 0x32, 0x71, 0xce, 0xbe,
    0x3e, 0x09, 0x04, 0x3f, 0x35, 0xca, 0x12, 0xbf, 0xac,
    0xba, 0x00, 0x3f, 0xee, 0x90, 0x5d, 0xbc, 0xaf, 0xb7,
    0x08, 0x3f, 0x2b, 0xc0, 0xcc, 0x3d, 0xee, 0xad, 0x08,
    0x3f, 0xbb, 0xfa, 0x0d, 0x3e, 0x12, 0x51, 0x9f, 0x3d
  };

  return AI_HANDLE_PTR(s_network_weights);
}

